{
  "dslm_tokenizer": 1,
  "vocab_size": 1024,
  "digest": "sha256:4e2027b5f90a1f1778598a0d1ddfe81ec2098d64e78d67a0845e2f9f199ce695",
  "merges": [
    [
      "d",
      "</w>"
    ],
    [
      "e",
      "</w>"
    ],
    [
      "e",
      "d</w>"
    ],
    [
      "t",
      "h"
    ],
    [
      "o",
      "n"
    ],
    [
      "e",
      "r"
    ],
    [
      "th",
      "e</w>"
    ],
    [
      "i",
      "n"
    ],
    [
      "t",
      "</w>"
    ],
    [
      ".",
      "</w>"
    ],
    [
      "a",
      "n"
    ],
    [
      "r",
      "e"
    ],
    [
      "o",
      "r"
    ],
    [
      "e",
      "c"
    ],
    [
      "on",
      "</w>"
    ],
    [
      "a",
      "t"
    ],
    [
      "an",
      "d</w>"
    ],
    [
      "in",
      "g"
    ],
    [
      "ing",
      "</w>"
    ],
    [
      "a",
      "l"
    ],
    [
      "er",
      "</w>"
    ],
    [
      "c",
      "h"
    ],
    [
      "a",
      "c"
    ],
    [
      "u",
      "r"
    ],
    [
      ":",
      "</w>"
    ],
    [
      "re",
      "p"
    ],
    [
      "ec",
      "t"
    ],
    [
      "a",
      "t</w>"
    ],
    [
      "or",
      "</w>"
    ],
    [
      "n",
      "</w>"
    ],
    [
      "ec",
      "k"
    ],
    [
      "ch",
      "eck"
    ],
    [
      "l",
      "e"
    ],
    [
      "m",
      "</w>"
    ],
    [
      "t",
      "e"
    ],
    [
      "p",
      "/"
    ],
    [
      "p/",
      "n</w>"
    ],
    [
      "u",
      "n"
    ],
    [
      "a",
      "m"
    ],
    [
      "o",
      "</w>"
    ],
    [
      "a",
      "r"
    ],
    [
      "s",
      "p"
    ],
    [
      "al",
      "</w>"
    ],
    [
      "s",
      "e"
    ],
    [
      "i",
      "on</w>"
    ],
    [
      "t",
      "r"
    ],
    [
      "c",
      "on"
    ],
    [
      "o",
      "l"
    ],
    [
      "i",
      "c"
    ],
    [
      "rep",
      "l"
    ],
    [
      "i",
      "s"
    ],
    [
      "repl",
      "ac"
    ],
    [
      "replac",
      "ed</w>"
    ],
    [
      "i",
      "t"
    ],
    [
      "y",
      "</w>"
    ],
    [
      "p",
      "er"
    ],
    [
      "i",
      "on"
    ],
    [
      "sp",
      "ect"
    ],
    [
      "in",
      "spect"
    ],
    [
      "p",
      "er</w>"
    ],
    [
      "am",
      "m</w>"
    ],
    [
      "-",
      "0"
    ],
    [
      "l",
      "o"
    ],
    [
      "f",
      "i"
    ],
    [
      "ur",
      "ing</w>"
    ],
    [
      "d",
      "uring</w>"
    ],
    [
      "m",
      "ed</w>"
    ],
    [
      "e",
      "n"
    ],
    [
      "t",
      "ed</w>"
    ],
    [
      "o",
      "un"
    ],
    [
      "3",
      "2"
    ],
    [
      "check",
      "</w>"
    ],
    [
      "check",
      ".</w>"
    ],
    [
      "r",
      "i"
    ],
    [
      "a",
      "g"
    ],
    [
      "c",
      "o"
    ],
    [
      "an",
      "</w>"
    ],
    [
      "7",
      "3"
    ],
    [
      "m",
      "p"
    ],
    [
      "i",
      "l"
    ],
    [
      "t",
      "o</w>"
    ],
    [
      "s",
      "s"
    ],
    [
      "0",
      "</w>"
    ],
    [
      "w",
      "</w>"
    ],
    [
      "f",
      "oun"
    ],
    [
      "ic",
      "at"
    ],
    [
      ";",
      "</w>"
    ],
    [
      "a",
      "32"
    ],
    [
      "u",
      "l"
    ],
    [
      "a",
      "k"
    ],
    [
      "in",
      "d"
    ],
    [
      "per",
      "at"
    ],
    [
      "rep",
      "or"
    ],
    [
      "a",
      "</w>"
    ],
    [
      "b",
      "73"
    ],
    [
      "v",
      "al"
    ],
    [
      "a",
      "d"
    ],
    [
      "—",
      "</w>"
    ],
    [
      "r",
      "o"
    ],
    [
      "s",
      "t"
    ],
    [
      "ion",
      "al</w>"
    ],
    [
      "ind",
      "icat"
    ],
    [
      "ur",
      "e</w>"
    ],
    [
      "v",
      "e</w>"
    ],
    [
      "d",
      "e"
    ],
    [
      "en",
      "t</w>"
    ],
    [
      "u",
      "t</w>"
    ],
    [
      "inspect",
      "ed</w>"
    ],
    [
      "foun",
      "d</w>"
    ],
    [
      "f",
      "a"
    ],
    [
      "t",
      "ing</w>"
    ],
    [
      "n",
      "o</w>"
    ],
    [
      "f",
      "or"
    ],
    [
      "w",
      "i"
    ],
    [
      "s",
      "h"
    ],
    [
      "val",
      "ve</w>"
    ],
    [
      "co",
      "mp"
    ],
    [
      "repor",
      "ted</w>"
    ],
    [
      "tr",
      "ol"
    ],
    [
      "con",
      "trol"
    ],
    [
      "l",
      "i"
    ],
    [
      "p",
      "re"
    ],
    [
      "v",
      "er"
    ],
    [
      "i",
      "t</w>"
    ],
    [
      "in",
      "</w>"
    ],
    [
      "le",
      "ak"
    ],
    [
      "o",
      "w"
    ],
    [
      "per",
      "for"
    ],
    [
      "perfor",
      "med</w>"
    ],
    [
      "e",
      "l"
    ],
    [
      "ag",
      "e</w>"
    ],
    [
      "o",
      "ut</w>"
    ],
    [
      "fi",
      "r"
    ],
    [
      "t",
      "er</w>"
    ],
    [
      "e",
      ".</w>"
    ],
    [
      "se",
      "al</w>"
    ],
    [
      "f",
      "or</w>"
    ],
    [
      "d",
      ".</w>"
    ],
    [
      "s",
      "er"
    ],
    [
      "ser",
      "v"
    ],
    [
      "at",
      "or</w>"
    ],
    [
      "fir",
      "med</w>"
    ],
    [
      "con",
      "firmed</w>"
    ],
    [
      "2",
      "2"
    ],
    [
      "c",
      "le"
    ],
    [
      "wi",
      "th"
    ],
    [
      "1",
      "9"
    ],
    [
      "inspect",
      "ion</w>"
    ],
    [
      "ac",
      "t"
    ],
    [
      "c",
      "t"
    ],
    [
      "h",
      "e"
    ],
    [
      "n",
      "s"
    ],
    [
      "s",
      "t</w>"
    ],
    [
      "c",
      "ar"
    ],
    [
      "pre",
      "ss"
    ],
    [
      "at",
      "ed</w>"
    ],
    [
      "f",
      "er"
    ],
    [
      "i",
      "r"
    ],
    [
      "te",
      "m</w>"
    ],
    [
      "tr",
      "an"
    ],
    [
      "q",
      "u"
    ],
    [
      "l",
      "y</w>"
    ],
    [
      "r",
      "ed</w>"
    ],
    [
      "t",
      "er"
    ],
    [
      "o",
      "perat"
    ],
    [
      "c",
      "re"
    ],
    [
      "r",
      "er"
    ],
    [
      "rer",
      "an</w>"
    ],
    [
      "p",
      "ro"
    ],
    [
      "an",
      "c"
    ],
    [
      "ul",
      "t</w>"
    ],
    [
      "fa",
      "ult</w>"
    ],
    [
      "lo",
      "w</w>"
    ],
    [
      "car",
      "ri"
    ],
    [
      "k",
      "</w>"
    ],
    [
      "n",
      "ect"
    ],
    [
      "he",
      "at</w>"
    ],
    [
      "con",
      "nect"
    ],
    [
      "f",
      "</w>"
    ],
    [
      "sh",
      "ow"
    ],
    [
      "show",
      "ed</w>"
    ],
    [
      "cre",
      "w</w>"
    ],
    [
      "ol",
      "ated</w>"
    ],
    [
      "is",
      "olated</w>"
    ],
    [
      "a",
      "22"
    ],
    [
      "d",
      "is"
    ],
    [
      "i",
      "tem</w>"
    ],
    [
      "fer",
      "red</w>"
    ],
    [
      "de",
      "ferred</w>"
    ],
    [
      ")",
      ".</w>"
    ],
    [
      "c",
      "or"
    ],
    [
      "te",
      "m"
    ],
    [
      "un",
      "it</w>"
    ],
    [
      "p",
      "</w>"
    ],
    [
      "b73",
      "7"
    ],
    [
      "a32",
      "1"
    ],
    [
      "tran",
      "s"
    ],
    [
      "i",
      "fi"
    ],
    [
      "cle",
      "an"
    ],
    [
      "clean",
      "ed</w>"
    ],
    [
      ")",
      "</w>"
    ],
    [
      "control",
      "</w>"
    ],
    [
      "press",
      "ure</w>"
    ],
    [
      "g",
      "h"
    ],
    [
      "d",
      "u"
    ],
    [
      "un",
      "ct"
    ],
    [
      "unct",
      "ional</w>"
    ],
    [
      "ion",
      ".</w>"
    ],
    [
      "f",
      "unctional</w>"
    ],
    [
      "4",
      "-"
    ],
    [
      "s",
      "</w>"
    ],
    [
      "connect",
      "or</w>"
    ],
    [
      "on",
      "ent</w>"
    ],
    [
      "e",
      "19"
    ],
    [
      "comp",
      "onent</w>"
    ],
    [
      "d",
      "o"
    ],
    [
      "ol",
      "er"
    ],
    [
      "t",
      "oler"
    ],
    [
      "toler",
      "anc"
    ],
    [
      "serv",
      "ic"
    ],
    [
      "b73",
      "8"
    ],
    [
      "9",
      "-"
    ],
    [
      "carri",
      "ed</w>"
    ],
    [
      "p",
      "u"
    ],
    [
      "tem",
      "perat"
    ],
    [
      "operat",
      "ional</w>"
    ],
    [
      "lo",
      "o"
    ],
    [
      "act",
      "u"
    ],
    [
      "n",
      "o"
    ],
    [
      "m",
      "it"
    ],
    [
      "ifi",
      "ed</w>"
    ],
    [
      "pro",
      "b"
    ],
    [
      "te",
      "st"
    ],
    [
      "test",
      ".</w>"
    ],
    [
      "b",
      "r"
    ],
    [
      "d",
      "g"
    ],
    [
      "a",
      "il"
    ],
    [
      "8",
      "-"
    ],
    [
      "e",
      "ss"
    ],
    [
      "actu",
      "ator</w>"
    ],
    [
      "a",
      "f"
    ],
    [
      "1",
      "-"
    ],
    [
      "m",
      "ent</w>"
    ],
    [
      "temperat",
      "ure</w>"
    ],
    [
      "0",
      "-"
    ],
    [
      "do",
      "or</w>"
    ],
    [
      "e",
      "e"
    ],
    [
      "t",
      "or"
    ],
    [
      "s",
      "ted</w>"
    ],
    [
      "ar",
      "n"
    ],
    [
      "ver",
      "ified</w>"
    ],
    [
      "tor",
      "qu"
    ],
    [
      "torqu",
      "ed</w>"
    ],
    [
      "c",
      "dg"
    ],
    [
      "l",
      "a"
    ],
    [
      "6",
      "-"
    ],
    [
      "in",
      "e</w>"
    ],
    [
      "7",
      "-"
    ],
    [
      "l",
      "h"
    ],
    [
      "lh",
      "r"
    ],
    [
      "u",
      "t"
    ],
    [
      "se",
      "ns"
    ],
    [
      "a",
      "s"
    ],
    [
      "t",
      "ur"
    ],
    [
      "re",
      "tur"
    ],
    [
      "l",
      "is"
    ],
    [
      "ir",
      "</w>"
    ],
    [
      "te",
      "st</w>"
    ],
    [
      "p",
      "h"
    ],
    [
      "c",
      "ph"
    ],
    [
      "o",
      "ver"
    ],
    [
      "indicat",
      "ion</w>"
    ],
    [
      "a32",
      "0</w>"
    ],
    [
      "with",
      "</w>"
    ],
    [
      "3",
      "-"
    ],
    [
      "prob",
      "e</w>"
    ],
    [
      "0",
      ":</w>"
    ],
    [
      "e",
      "le"
    ],
    [
      "tr",
      "i"
    ],
    [
      "d",
      "ail"
    ],
    [
      "dail",
      "y</w>"
    ],
    [
      "a22",
      "0</w>"
    ],
    [
      "re",
      "c"
    ],
    [
      "re",
      "-"
    ],
    [
      "re-",
      "torqued</w>"
    ],
    [
      "b737",
      "</w>"
    ],
    [
      "a321",
      "</w>"
    ],
    [
      "u",
      "sted</w>"
    ],
    [
      "r",
      "a"
    ],
    [
      "j",
      "usted</w>"
    ],
    [
      "ad",
      "justed</w>"
    ],
    [
      "sens",
      "or</w>"
    ],
    [
      "li",
      "gh"
    ],
    [
      "du",
      "b"
    ],
    [
      "ar",
      "g"
    ],
    [
      "retur",
      "n"
    ],
    [
      "return",
      "ed</w>"
    ],
    [
      "st",
      "ar"
    ],
    [
      "a",
      "b"
    ],
    [
      "ligh",
      "t</w>"
    ],
    [
      "f",
      "it"
    ],
    [
      "fa",
      "il"
    ],
    [
      "fit",
      "ting</w>"
    ],
    [
      "e19",
      "0</w>"
    ],
    [
      "2",
      "-"
    ],
    [
      "over",
      "heat</w>"
    ],
    [
      "u",
      "p"
    ],
    [
      "servic",
      "e</w>"
    ],
    [
      "l",
      "ine</w>"
    ],
    [
      "is",
      "e</w>"
    ],
    [
      "m",
      "a"
    ],
    [
      "el",
      "</w>"
    ],
    [
      "f",
      "u"
    ],
    [
      "b738",
      "</w>"
    ],
    [
      "with",
      "in</w>"
    ],
    [
      "t",
      "ting</w>"
    ],
    [
      "se",
      "tting</w>"
    ],
    [
      "ri",
      "g"
    ],
    [
      "on",
      "it"
    ],
    [
      "onit",
      "or"
    ],
    [
      "m",
      "onitor"
    ],
    [
      "t",
      "i"
    ],
    [
      "r",
      "am"
    ],
    [
      "ram",
      "p</w>"
    ],
    [
      "mp",
      "</w>"
    ],
    [
      "ele",
      "ment</w>"
    ],
    [
      "sp",
      "on"
    ],
    [
      "m",
      "b"
    ],
    [
      "fail",
      "ed</w>"
    ],
    [
      "toleranc",
      "e.</w>"
    ],
    [
      "s",
      ".</w>"
    ],
    [
      "it",
      "y</w>"
    ],
    [
      "w",
      "ee"
    ],
    [
      "wee",
      "k"
    ],
    [
      "week",
      "ly</w>"
    ],
    [
      "d",
      "ra"
    ],
    [
      "tri",
      "b"
    ],
    [
      "trib",
      "ut"
    ],
    [
      "dis",
      "tribut"
    ],
    [
      "a",
      "-"
    ],
    [
      "a-",
      "check</w>"
    ],
    [
      "fi",
      "l"
    ],
    [
      "ac",
      "k</w>"
    ],
    [
      "s",
      "e</w>"
    ],
    [
      "d",
      "i"
    ],
    [
      "ag",
      "e.</w>"
    ],
    [
      "le",
      "t</w>"
    ],
    [
      "fil",
      "ter</w>"
    ],
    [
      "e",
      "x"
    ],
    [
      "0",
      ".</w>"
    ],
    [
      "se",
      "l"
    ],
    [
      "sel",
      "ect"
    ],
    [
      "n",
      "t</w>"
    ],
    [
      "e",
      "n</w>"
    ],
    [
      "no",
      "ise</w>"
    ],
    [
      "ch",
      "arg"
    ],
    [
      "as",
      "se"
    ],
    [
      "trans",
      "it</w>"
    ],
    [
      "rig",
      "g"
    ],
    [
      "5",
      "-"
    ],
    [
      "b",
      "e"
    ],
    [
      "l",
      "ing</w>"
    ],
    [
      "g",
      "r"
    ],
    [
      "s",
      "w"
    ],
    [
      "loo",
      "m</w>"
    ],
    [
      "l",
      "e</w>"
    ],
    [
      "pu",
      "</w>"
    ],
    [
      "a",
      "pu</w>"
    ],
    [
      "at",
      "ion</w>"
    ],
    [
      "leak",
      "age.</w>"
    ],
    [
      "o",
      "f</w>"
    ],
    [
      "or",
      "m"
    ],
    [
      "orm",
      "al</w>"
    ],
    [
      "n",
      "ormal</w>"
    ],
    [
      "ab",
      "normal</w>"
    ],
    [
      "g",
      "en"
    ],
    [
      "ch",
      "</w>"
    ],
    [
      "u",
      "m"
    ],
    [
      "p",
      "o"
    ],
    [
      "m",
      "ad"
    ],
    [
      "fu",
      "el</w>"
    ],
    [
      "c",
      "k</w>"
    ],
    [
      "ter",
      "mit"
    ],
    [
      "termit",
      "te"
    ],
    [
      "termitte",
      "nt</w>"
    ],
    [
      "re",
      "spon"
    ],
    [
      "in",
      "termittent</w>"
    ],
    [
      "a",
      "ir</w>"
    ],
    [
      "p",
      "ow"
    ],
    [
      "ar",
      "</w>"
    ],
    [
      "w",
      "arn"
    ],
    [
      "pow",
      "er</w>"
    ],
    [
      "b",
      "at"
    ],
    [
      "bat",
      "ter"
    ],
    [
      "warn",
      "ing</w>"
    ],
    [
      "te",
      "d.</w>"
    ],
    [
      "repor",
      "ted.</w>"
    ],
    [
      "e",
      "t</w>"
    ],
    [
      "asse",
      "mb"
    ],
    [
      "pu",
      "mp</w>"
    ],
    [
      "co",
      "up"
    ],
    [
      "r",
      "ic"
    ],
    [
      "el",
      "ect"
    ],
    [
      "elect",
      "ric"
    ],
    [
      "batter",
      "y</w>"
    ],
    [
      "rec",
      "t</w>"
    ],
    [
      "l",
      "</w>"
    ],
    [
      "cor",
      "rect</w>"
    ],
    [
      "be",
      "low</w>"
    ],
    [
      "af",
      "ter</w>"
    ],
    [
      "ac",
      "k"
    ],
    [
      "toleranc",
      "e</w>"
    ],
    [
      "t",
      "ity</w>"
    ],
    [
      "qu",
      "an"
    ],
    [
      "quan",
      "tity</w>"
    ],
    [
      "t",
      ".</w>"
    ],
    [
      "rigg",
      "ed</w>"
    ],
    [
      "assemb",
      "ly</w>"
    ],
    [
      "coup",
      "ling</w>"
    ],
    [
      "a",
      "v"
    ],
    [
      "s",
      "ion</w>"
    ],
    [
      "ro",
      "sion</w>"
    ],
    [
      "cor",
      "rosion</w>"
    ],
    [
      "7",
      ".</w>"
    ],
    [
      "-0",
      "7.</w>"
    ],
    [
      "f",
      "la"
    ],
    [
      "5",
      ".</w>"
    ],
    [
      "-0",
      "5.</w>"
    ],
    [
      "sw",
      "it"
    ],
    [
      "leak",
      "</w>"
    ],
    [
      "3",
      ".</w>"
    ],
    [
      "-0",
      "3.</w>"
    ],
    [
      "s",
      "it"
    ],
    [
      "sit",
      "ion</w>"
    ],
    [
      "po",
      "sition</w>"
    ],
    [
      "le",
      "ted</w>"
    ],
    [
      "comp",
      "leted</w>"
    ],
    [
      "check",
      "ed</w>"
    ],
    [
      "sp",
      "la"
    ],
    [
      "spla",
      "y"
    ],
    [
      "m",
      "ess"
    ],
    [
      "mess",
      "age</w>"
    ],
    [
      "di",
      "splay"
    ],
    [
      "re",
      "ad"
    ],
    [
      "read",
      "ing</w>"
    ],
    [
      "foun",
      "d.</w>"
    ],
    [
      "respon",
      "se</w>"
    ],
    [
      "le",
      "ed</w>"
    ],
    [
      "b",
      "leed</w>"
    ],
    [
      "8",
      ".</w>"
    ],
    [
      "-0",
      "8.</w>"
    ],
    [
      "re",
      "e"
    ],
    [
      "h",
      "arn"
    ],
    [
      "harn",
      "ess"
    ],
    [
      "electric",
      "al</w>"
    ],
    [
      "d",
      "am"
    ],
    [
      "dam",
      "age</w>"
    ],
    [
      "ch",
      "af"
    ],
    [
      "chaf",
      "ing</w>"
    ],
    [
      "x",
      "i"
    ],
    [
      "charg",
      "e</w>"
    ],
    [
      "swit",
      "ch</w>"
    ],
    [
      "in",
      "let</w>"
    ],
    [
      "m",
      "o"
    ],
    [
      "p",
      "p"
    ],
    [
      "lhr",
      ":</w>"
    ],
    [
      "3",
      "0-"
    ],
    [
      "s",
      "tr"
    ],
    [
      "1",
      ".</w>"
    ],
    [
      "-0",
      "1.</w>"
    ],
    [
      "2",
      "9-"
    ],
    [
      "o",
      "f"
    ],
    [
      "indicat",
      "ing</w>"
    ],
    [
      "cph",
      ":</w>"
    ],
    [
      "e",
      "d.</w>"
    ],
    [
      "6",
      ".</w>"
    ],
    [
      "4",
      ".</w>"
    ],
    [
      "2",
      ".</w>"
    ],
    [
      "-0",
      "6.</w>"
    ],
    [
      "-0",
      "4.</w>"
    ],
    [
      "-0",
      "2.</w>"
    ],
    [
      "wi",
      "r"
    ],
    [
      "wir",
      "ing</w>"
    ],
    [
      "5",
      "2-"
    ],
    [
      "r",
      "u"
    ],
    [
      "ing",
      ").</w>"
    ],
    [
      "d",
      "ri"
    ],
    [
      "t",
      "ect"
    ],
    [
      "serv",
      "o"
    ],
    [
      "re",
      "servo"
    ],
    [
      "re",
      "li"
    ],
    [
      "reli",
      "e"
    ],
    [
      "relie",
      "f</w>"
    ],
    [
      "m",
      "m"
    ],
    [
      "ing",
      ")</w>"
    ],
    [
      "indicat",
      "ion.</w>"
    ],
    [
      "il",
      "</w>"
    ],
    [
      "de",
      "tect"
    ],
    [
      "cdg",
      ":</w>"
    ],
    [
      "9",
      ".</w>"
    ],
    [
      "-0",
      "9.</w>"
    ],
    [
      "lis",
      ":</w>"
    ],
    [
      "leak",
      "age</w>"
    ],
    [
      "2",
      "7-"
    ],
    [
      "2",
      "1-"
    ],
    [
      "s",
      "ur"
    ],
    [
      "star",
      "t</w>"
    ],
    [
      "r",
      "ad"
    ],
    [
      "3",
      "6-"
    ],
    [
      "e",
      "p"
    ],
    [
      "6",
      "8"
    ],
    [
      "3",
      "4-"
    ],
    [
      "2",
      "8-"
    ],
    [
      "ma",
      "d</w>"
    ],
    [
      "ic",
      "</w>"
    ],
    [
      "dra",
      "in</w>"
    ],
    [
      "gen",
      "er"
    ],
    [
      "p",
      "ack</w>"
    ],
    [
      "harness",
      "</w>"
    ],
    [
      "c",
      "lo"
    ],
    [
      "g",
      "o</w>"
    ],
    [
      "s",
      ":</w>"
    ],
    [
      "am",
      "s:</w>"
    ],
    [
      "4",
      "9-"
    ],
    [
      "2",
      "4-"
    ],
    [
      "y",
      "s"
    ],
    [
      "s",
      "ys"
    ],
    [
      "oun",
      "ting</w>"
    ],
    [
      "o",
      "p"
    ],
    [
      "m",
      "ounting</w>"
    ],
    [
      "gr",
      "oun"
    ],
    [
      "br",
      "ak"
    ],
    [
      "br",
      "ack"
    ],
    [
      "(",
      "indicat"
    ],
    [
      "lis",
      "</w>"
    ],
    [
      "l",
      "u"
    ],
    [
      "4",
      "9"
    ],
    [
      "reservo",
      "ir</w>"
    ],
    [
      "distribut",
      "ion</w>"
    ],
    [
      "d",
      "e</w>"
    ],
    [
      "6",
      "6"
    ],
    [
      "ol",
      "er</w>"
    ],
    [
      "dub",
      "</w>"
    ],
    [
      "co",
      "oler</w>"
    ],
    [
      "32",
      "-"
    ],
    [
      "mad",
      ":</w>"
    ],
    [
      "5",
      "1"
    ],
    [
      "(",
      "control"
    ],
    [
      "lo",
      "ck</w>"
    ],
    [
      "i",
      "f"
    ],
    [
      "cph",
      "</w>"
    ],
    [
      "cdg",
      "</w>"
    ],
    [
      "w",
      "o</w>"
    ],
    [
      "t",
      "wo</w>"
    ],
    [
      "te",
      "ns"
    ],
    [
      "lhr",
      "</w>"
    ],
    [
      "i",
      "g"
    ],
    [
      "f",
      "an</w>"
    ],
    [
      "ex",
      "tens"
    ],
    [
      "3",
      "3-"
    ],
    [
      "du",
      "c"
    ],
    [
      "duc",
      "t</w>"
    ],
    [
      "um",
      "ul"
    ],
    [
      "select",
      "ion.</w>"
    ],
    [
      "c",
      "umul"
    ],
    [
      "ac",
      "cumul"
    ],
    [
      "(",
      "monitor"
    ],
    [
      "distribut",
      "ion"
    ],
    [
      "am",
      "s</w>"
    ],
    [
      "2",
      "9"
    ],
    [
      "(",
      "distribution"
    ],
    [
      "op",
      "en</w>"
    ],
    [
      "4",
      "6"
    ],
    [
      "3",
      "8"
    ],
    [
      "3",
      "0"
    ],
    [
      "mo",
      "d"
    ],
    [
      "mod",
      "ul"
    ],
    [
      "dis",
      "charge</w>"
    ],
    [
      "5",
      "8"
    ],
    [
      "sh",
      "i"
    ],
    [
      "a",
      "u"
    ],
    [
      "5",
      "7"
    ],
    [
      "dub",
      ":</w>"
    ],
    [
      "accumul",
      "ator</w>"
    ],
    [
      "5",
      "6"
    ],
    [
      "t",
      "act"
    ],
    [
      "servic",
      "ed</w>"
    ],
    [
      "select",
      "ion</w>"
    ],
    [
      "con",
      "tact"
    ],
    [
      "ns",
      "</w>"
    ],
    [
      "ma",
      "st</w>"
    ],
    [
      "monitor",
      "ing</w>"
    ],
    [
      "dis",
      "ag"
    ],
    [
      "brack",
      "et</w>"
    ],
    [
      "b",
      "y</w>"
    ],
    [
      "t",
      "y"
    ],
    [
      "ty",
      "r"
    ],
    [
      "tyr",
      "e</w>"
    ],
    [
      "pre",
      "cooler</w>"
    ],
    [
      "contact",
      "or</w>"
    ],
    [
      "brak",
      "e</w>"
    ],
    [
      "2",
      "6"
    ],
    [
      "s",
      "low</w>"
    ],
    [
      "e",
      ":</w>"
    ],
    [
      "3",
      "9"
    ],
    [
      "se",
      "ep"
    ],
    [
      "seep",
      "age</w>"
    ],
    [
      "f",
      "ee"
    ],
    [
      "4",
      "1"
    ],
    [
      "no",
      "t</w>"
    ],
    [
      "extens",
      "ion</w>"
    ],
    [
      "e",
      "ed</w>"
    ],
    [
      "xi",
      "mit"
    ],
    [
      "ximit",
      "y</w>"
    ],
    [
      "pro",
      "ximity</w>"
    ],
    [
      "gener",
      "ator</w>"
    ],
    [
      "8",
      "6"
    ],
    [
      "7",
      "1"
    ],
    [
      "i",
      "gh"
    ],
    [
      "h",
      "igh"
    ],
    [
      "c",
      "ru"
    ],
    [
      "4",
      "8"
    ],
    [
      "2",
      "1"
    ],
    [
      "b",
      "o"
    ],
    [
      "m",
      "e"
    ],
    [
      "at",
      "er</w>"
    ],
    [
      "ing",
      ".</w>"
    ],
    [
      "7",
      "9"
    ],
    [
      "5",
      "9"
    ],
    [
      "7",
      "8"
    ],
    [
      "4",
      "4"
    ],
    [
      "g",
      "</w>"
    ],
    [
      "b",
      "lock</w>"
    ],
    [
      "at",
      "e</w>"
    ],
    [
      "3",
      "6"
    ],
    [
      "li",
      "mit"
    ],
    [
      "7",
      "6"
    ],
    [
      "3",
      ";</w>"
    ],
    [
      "1",
      "0"
    ],
    [
      "w",
      "e"
    ],
    [
      "trans",
      "c"
    ],
    [
      "transc",
      "e"
    ],
    [
      "transce",
      "i"
    ],
    [
      "sur",
      "f"
    ],
    [
      "surf",
      "ac"
    ],
    [
      "surfac",
      "e</w>"
    ],
    [
      "s",
      "li"
    ],
    [
      "sli",
      "de</w>"
    ],
    [
      "o",
      "il</w>"
    ],
    [
      "m",
      "en"
    ],
    [
      "5",
      "5"
    ],
    [
      "2",
      "8"
    ],
    [
      "pp",
      "ed</w>"
    ],
    [
      "m",
      "ec"
    ],
    [
      "mec",
      "h"
    ],
    [
      "mech",
      "an"
    ],
    [
      "mechan",
      "is"
    ],
    [
      "d",
      "er</w>"
    ],
    [
      "p",
      "it"
    ],
    [
      "pit",
      "o"
    ],
    [
      "pito",
      "t</w>"
    ],
    [
      "en",
      "g"
    ],
    [
      "b737",
      ":</w>"
    ],
    [
      "in",
      "er"
    ],
    [
      "iner",
      "ti"
    ],
    [
      "v",
      "er</w>"
    ],
    [
      "ul",
      "l</w>"
    ],
    [
      "transcei",
      "ver</w>"
    ],
    [
      "le",
      "f"
    ],
    [
      "lef",
      "t</w>"
    ],
    [
      "l",
      "an"
    ],
    [
      "lan",
      "d"
    ],
    [
      "land",
      "ing</w>"
    ],
    [
      "f",
      "ull</w>"
    ],
    [
      "e",
      "s.</w>"
    ],
    [
      "mechanis",
      "m</w>"
    ],
    [
      "leak",
      "ing.</w>"
    ],
    [
      "dra",
      "in"
    ],
    [
      "1",
      "1"
    ],
    [
      "loo",
      "p</w>"
    ],
    [
      "l",
      "ed</w>"
    ],
    [
      "b738",
      ".</w>"
    ],
    [
      "a321",
      ".</w>"
    ],
    [
      "4",
      "0"
    ],
    [
      "2",
      "0"
    ],
    [
      "sp",
      "ec"
    ],
    [
      "ti",
      "-"
    ],
    [
      "ti-",
      "ic"
    ],
    [
      "ir",
      "c"
    ],
    [
      "display",
      "ed</w>"
    ],
    [
      "an",
      "ti-ic"
    ],
    [
      "4",
      "5"
    ],
    [
      "or",
      ":</w>"
    ],
    [
      "fla",
      "sh"
    ],
    [
      "display",
      "ed.</w>"
    ],
    [
      "comp",
      "u"
    ],
    [
      "1",
      "6"
    ],
    [
      "ut",
      "let</w>"
    ],
    [
      "u",
      "mp</w>"
    ],
    [
      "s",
      "ump</w>"
    ],
    [
      "s",
      "am"
    ],
    [
      "sam",
      "p"
    ],
    [
      "o",
      "utlet</w>"
    ],
    [
      "m",
      ".</w>"
    ],
    [
      "l",
      "er</w>"
    ],
    [
      "il",
      "l"
    ],
    [
      "3",
      "7"
    ],
    [
      "g",
      "e"
    ],
    [
      "cle",
      "ar"
    ],
    [
      "cdg",
      ".</w>"
    ],
    [
      "a22",
      "0.</w>"
    ],
    [
      "u",
      "re"
    ],
    [
      "se",
      "t</w>"
    ],
    [
      "s",
      "ect"
    ],
    [
      "re",
      "set</w>"
    ],
    [
      "re",
      "cor"
    ],
    [
      "m",
      "in"
    ],
    [
      "inspect",
      "ion.</w>"
    ],
    [
      "a22",
      "0:</w>"
    ],
    [
      "val",
      "v"
    ],
    [
      "valv",
      "e:</w>"
    ]
  ],
  "vocab": {
    "<pad>": 0,
    "<unk>": 1,
    "(": 2,
    ")": 3,
    "-": 4,
    ".": 5,
    "/": 6,
    "0": 7,
    "1": 8,
    "2": 9,
    "3": 10,
    "4": 11,
    "5": 12,
    "6": 13,
    "7": 14,
    "8": 15,
    "9": 16,
    ":": 17,
    ";": 18,
    "</w>": 19,
    "<0x00>": 20,
    "<0x01>": 21,
    "<0x02>": 22,
    "<0x03>": 23,
    "<0x04>": 24,
    "<0x05>": 25,
    "<0x06>": 26,
    "<0x07>": 27,
    "<0x08>": 28,
    "<0x09>": 29,
    "<0x0A>": 30,
    "<0x0B>": 31,
    "<0x0C>": 32,
    "<0x0D>": 33,
    "<0x0E>": 34,
    "<0x0F>": 35,
    "<0x10>": 36,
    "<0x11>": 37,
    "<0x12>": 38,
    "<0x13>": 39,
    "<0x14>": 40,
    "<0x15>": 41,
    "<0x16>": 42,
    "<0x17>": 43,
    "<0x18>": 44,
    "<0x19>": 45,
    "<0x1A>": 46,
    "<0x1B>": 47,
    "<0x1C>": 48,
    "<0x1D>": 49,
    "<0x1E>": 50,
    "<0x1F>": 51,
    "<0x20>": 52,
    "<0x21>": 53,
    "<0x22>": 54,
    "<0x23>": 55,
    "<0x24>": 56,
    "<0x25>": 57,
    "<0x26>": 58,
    "<0x27>": 59,
    "<0x28>": 60,
    "<0x29>": 61,
    "<0x2A>": 62,
    "<0x2B>": 63,
    "<0x2C>": 64,
    "<0x2D>": 65,
    "<0x2E>": 66,
    "<0x2F>": 67,
    "<0x30>": 68,
    "<0x31>": 69,
    "<0x32>": 70,
    "<0x33>": 71,
    "<0x34>": 72,
    "<0x35>": 73,
    "<0x36>": 74,
    "<0x37>": 75,
    "<0x38>": 76,
    "<0x39>": 77,
    "<0x3A>": 78,
    "<0x3B>": 79,
    "<0x3C>": 80,
    "<0x3D>": 81,
    "<0x3E>": 82,
    "<0x3F>": 83,
    "<0x40>": 84,
    "<0x41>": 85,
    "<0x42>": 86,
    "<0x43>": 87,
    "<0x44>": 88,
    "<0x45>": 89,
    "<0x46>": 90,
    "<0x47>": 91,
    "<0x48>": 92,
    "<0x49>": 93,
    "<0x4A>": 94,
    "<0x4B>": 95,
    "<0x4C>": 96,
    "<0x4D>": 97,
    "<0x4E>": 98,
    "<0x4F>": 99,
    "<0x50>": 100,
    "<0x51>": 101,
    "<0x52>": 102,
    "<0x53>": 103,
    "<0x54>": 104,
    "<0x55>": 105,
    "<0x56>": 106,
    "<0x57>": 107,
    "<0x58>": 108,
    "<0x59>": 109,
    "<0x5A>": 110,
    "<0x5B>": 111,
    "<0x5C>": 112,
    "<0x5D>": 113,
    "<0x5E>": 114,
    "<0x5F>": 115,
    "<0x60>": 116,
    "<0x61>": 117,
    "<0x62>": 118,
    "<0x63>": 119,
    "<0x64>": 120,
    "<0x65>": 121,
    "<0x66>": 122,
    "<0x67>": 123,
    "<0x68>": 124,
    "<0x69>": 125,
    "<0x6A>": 126,
    "<0x6B>": 127,
    "<0x6C>": 128,
    "<0x6D>": 129,
    "<0x6E>": 130,
    "<0x6F>": 131,
    "<0x70>": 132,
    "<0x71>": 133,
    "<0x72>": 134,
    "<0x73>": 135,
    "<0x74>": 136,
    "<0x75>": 137,
    "<0x76>": 138,
    "<0x77>": 139,
    "<0x78>": 140,
    "<0x79>": 141,
    "<0x7A>": 142,
    "<0x7B>": 143,
    "<0x7C>": 144,
    "<0x7D>": 145,
    "<0x7E>": 146,
    "<0x7F>": 147,
    "<0x80>": 148,
    "<0x81>": 149,
    "<0x82>": 150,
    "<0x83>": 151,
    "<0x84>": 152,
    "<0x85>": 153,
    "<0x86>": 154,
    "<0x87>": 155,
    "<0x88>": 156,
    "<0x89>": 157,
    "<0x8A>": 158,
    "<0x8B>": 159,
    "<0x8C>": 160,
    "<0x8D>": 161,
    "<0x8E>": 162,
    "<0x8F>": 163,
    "<0x90>": 164,
    "<0x91>": 165,
    "<0x92>": 166,
    "<0x93>": 167,
    "<0x94>": 168,
    "<0x95>": 169,
    "<0x96>": 170,
    "<0x97>": 171,
    "<0x98>": 172,
    "<0x99>": 173,
    "<0x9A>": 174,
    "<0x9B>": 175,
    "<0x9C>": 176,
    "<0x9D>": 177,
    "<0x9E>": 178,
    "<0x9F>": 179,
    "<0xA0>": 180,
    "<0xA1>": 181,
    "<0xA2>": 182,
    "<0xA3>": 183,
    "<0xA4>": 184,
    "<0xA5>": 185,
    "<0xA6>": 186,
    "<0xA7>": 187,
    "<0xA8>": 188,
    "<0xA9>": 189,
    "<0xAA>": 190,
    "<0xAB>": 191,
    "<0xAC>": 192,
    "<0xAD>": 193,
    "<0xAE>": 194,
    "<0xAF>": 195,
    "<0xB0>": 196,
    "<0xB1>": 197,
    "<0xB2>": 198,
    "<0xB3>": 199,
    "<0xB4>": 200,
    "<0xB5>": 201,
    "<0xB6>": 202,
    "<0xB7>": 203,
    "<0xB8>": 204,
    "<0xB9>": 205,
    "<0xBA>": 206,
    "<0xBB>": 207,
    "<0xBC>": 208,
    "<0xBD>": 209,
    "<0xBE>": 210,
    "<0xBF>": 211,
    "<0xC0>": 212,
    "<0xC1>": 213,
    "<0xC2>": 214,
    "<0xC3>": 215,
    "<0xC4>": 216,
    "<0xC5>": 217,
    "<0xC6>": 218,
    "<0xC7>": 219,
    "<0xC8>": 220,
    "<0xC9>": 221,
    "<0xCA>": 222,
    "<0xCB>": 223,
    "<0xCC>": 224,
    "<0xCD>": 225,
    "<0xCE>": 226,
    "<0xCF>": 227,
    "<0xD0>": 228,
    "<0xD1>": 229,
    "<0xD2>": 230,
    "<0xD3>": 231,
    "<0xD4>": 232,
    "<0xD5>": 233,
    "<0xD6>": 234,
    "<0xD7>": 235,
    "<0xD8>": 236,
    "<0xD9>": 237,
    "<0xDA>": 238,
    "<0xDB>": 239,
    "<0xDC>": 240,
    "<0xDD>": 241,
    "<0xDE>": 242,
    "<0xDF>": 243,
    "<0xE0>": 244,
    "<0xE1>": 245,
    "<0xE2>": 246,
    "<0xE3>": 247,
    "<0xE4>": 248,
    "<0xE5>": 249,
    "<0xE6>": 250,
    "<0xE7>": 251,
    "<0xE8>": 252,
    "<0xE9>": 253,
    "<0xEA>": 254,
    "<0xEB>": 255,
    "<0xEC>": 256,
    "<0xED>": 257,
    "<0xEE>": 258,
    "<0xEF>": 259,
    "<0xF0>": 260,
    "<0xF1>": 261,
    "<0xF2>": 262,
    "<0xF3>": 263,
    "<0xF4>": 264,
    "<0xF5>": 265,
    "<0xF6>": 266,
    "<0xF7>": 267,
    "<0xF8>": 268,
    "<0xF9>": 269,
    "<0xFA>": 270,
    "<0xFB>": 271,
    "<0xFC>": 272,
    "<0xFD>": 273,
    "<0xFE>": 274,
    "<0xFF>": 275,
    "a": 276,
    "b": 277,
    "c": 278,
    "d": 279,
    "e": 280,
    "f": 281,
    "g": 282,
    "h": 283,
    "i": 284,
    "j": 285,
    "k": 286,
    "l": 287,
    "m": 288,
    "n": 289,
    "o": 290,
    "p": 291,
    "q": 292,
    "r": 293,
    "s": 294,
    "t": 295,
    "u": 296,
    "v": 297,
    "w": 298,
    "x": 299,
    "y": 300,
    "z": 301,
    "—": 302,
    "d</w>": 303,
    "e</w>": 304,
    "ed</w>": 305,
    "th": 306,
    "on": 307,
    "er": 308,
    "the</w>": 309,
    "in": 310,
    "t</w>": 311,
    ".</w>": 312,
    "an": 313,
    "re": 314,
    "or": 315,
    "ec": 316,
    "on</w>": 317,
    "at": 318,
    "and</w>": 319,
    "ing": 320,
    "ing</w>": 321,
    "al": 322,
    "er</w>": 323,
    "ch": 324,
    "ac": 325,
    "ur": 326,
    ":</w>": 327,
    "rep": 328,
    "ect": 329,
    "at</w>": 330,
    "or</w>": 331,
    "n</w>": 332,
    "eck": 333,
    "check": 334,
    "le": 335,
    "m</w>": 336,
    "te": 337,
    "p/": 338,
    "p/n</w>": 339,
    "un": 340,
    "am": 341,
    "o</w>": 342,
    "ar": 343,
    "sp": 344,
    "al</w>": 345,
    "se": 346,
    "ion</w>": 347,
    "tr": 348,
    "con": 349,
    "ol": 350,
    "ic": 351,
    "repl": 352,
    "is": 353,
    "replac": 354,
    "replaced</w>": 355,
    "it": 356,
    "y</w>": 357,
    "per": 358,
    "ion": 359,
    "spect": 360,
    "inspect": 361,
    "per</w>": 362,
    "amm</w>": 363,
    "-0": 364,
    "lo": 365,
    "fi": 366,
    "uring</w>": 367,
    "during</w>": 368,
    "med</w>": 369,
    "en": 370,
    "ted</w>": 371,
    "oun": 372,
    "32": 373,
    "check</w>": 374,
    "check.</w>": 375,
    "ri": 376,
    "ag": 377,
    "co": 378,
    "an</w>": 379,
    "73": 380,
    "mp": 381,
    "il": 382,
    "to</w>": 383,
    "ss": 384,
    "0</w>": 385,
    "w</w>": 386,
    "foun": 387,
    "icat": 388,
    ";</w>": 389,
    "a32": 390,
    "ul": 391,
    "ak": 392,
    "ind": 393,
    "perat": 394,
    "repor": 395,
    "a</w>": 396,
    "b73": 397,
    "val": 398,
    "ad": 399,
    "—</w>": 400,
    "ro": 401,
    "st": 402,
    "ional</w>": 403,
    "indicat": 404,
    "ure</w>": 405,
    "ve</w>": 406,
    "de": 407,
    "ent</w>": 408,
    "ut</w>": 409,
    "inspected</w>": 410,
    "found</w>": 411,
    "fa": 412,
    "ting</w>": 413,
    "no</w>": 414,
    "for": 415,
    "wi": 416,
    "sh": 417,
    "valve</w>": 418,
    "comp": 419,
    "reported</w>": 420,
    "trol": 421,
    "control": 422,
    "li": 423,
    "pre": 424,
    "ver": 425,
    "it</w>": 426,
    "in</w>": 427,
    "leak": 428,
    "ow": 429,
    "perfor": 430,
    "performed</w>": 431,
    "el": 432,
    "age</w>": 433,
    "out</w>": 434,
    "fir": 435,
    "ter</w>": 436,
    "e.</w>": 437,
    "seal</w>": 438,
    "for</w>": 439,
    "d.</w>": 440,
    "ser": 441,
    "serv": 442,
    "ator</w>": 443,
    "firmed</w>": 444,
    "confirmed</w>": 445,
    "22": 446,
    "cle": 447,
    "with": 448,
    "19": 449,
    "inspection</w>": 450,
    "act": 451,
    "ct": 452,
    "he": 453,
    "ns": 454,
    "st</w>": 455,
    "car": 456,
    "press": 457,
    "ated</w>": 458,
    "fer": 459,
    "ir": 460,
    "tem</w>": 461,
    "tran": 462,
    "qu": 463,
    "ly</w>": 464,
    "red</w>": 465,
    "ter": 466,
    "operat": 467,
    "cre": 468,
    "rer": 469,
    "reran</w>": 470,
    "pro": 471,
    "anc": 472,
    "ult</w>": 473,
    "fault</w>": 474,
    "low</w>": 475,
    "carri": 476,
    "k</w>": 477,
    "nect": 478,
    "heat</w>": 479,
    "connect": 480,
    "f</w>": 481,
    "show": 482,
    "showed</w>": 483,
    "crew</w>": 484,
    "olated</w>": 485,
    "isolated</w>": 486,
    "a22": 487,
    "dis": 488,
    "item</w>": 489,
    "ferred</w>": 490,
    "deferred</w>": 491,
    ").</w>": 492,
    "cor": 493,
    "tem": 494,
    "unit</w>": 495,
    "p</w>": 496,
    "b737": 497,
    "a321": 498,
    "trans": 499,
    "ifi": 500,
    "clean": 501,
    "cleaned</w>": 502,
    ")</w>": 503,
    "control</w>": 504,
    "pressure</w>": 505,
    "gh": 506,
    "du": 507,
    "unct": 508,
    "unctional</w>": 509,
    "ion.</w>": 510,
    "functional</w>": 511,
    "4-": 512,
    "s</w>": 513,
    "connector</w>": 514,
    "onent</w>": 515,
    "e19": 516,
    "component</w>": 517,
    "do": 518,
    "oler": 519,
    "toler": 520,
    "toleranc": 521,
    "servic": 522,
    "b738": 523,
    "9-": 524,
    "carried</w>": 525,
    "pu": 526,
    "temperat": 527,
    "operational</w>": 528,
    "loo": 529,
    "actu": 530,
    "no": 531,
    "mit": 532,
    "ified</w>": 533,
    "prob": 534,
    "test": 535,
    "test.</w>": 536,
    "br": 537,
    "dg": 538,
    "ail": 539,
    "8-": 540,
    "ess": 541,
    "actuator</w>": 542,
    "af": 543,
    "1-": 544,
    "ment</w>": 545,
    "temperature</w>": 546,
    "0-": 547,
    "door</w>": 548,
    "ee": 549,
    "tor": 550,
    "sted</w>": 551,
    "arn": 552,
    "verified</w>": 553,
    "torqu": 554,
    "torqued</w>": 555,
    "cdg": 556,
    "la": 557,
    "6-": 558,
    "ine</w>": 559,
    "7-": 560,
    "lh": 561,
    "lhr": 562,
    "ut": 563,
    "sens": 564,
    "as": 565,
    "tur": 566,
    "retur": 567,
    "lis": 568,
    "ir</w>": 569,
    "test</w>": 570,
    "ph": 571,
    "cph": 572,
    "over": 573,
    "indication</w>": 574,
    "a320</w>": 575,
    "with</w>": 576,
    "3-": 577,
    "probe</w>": 578,
    "0:</w>": 579,
    "ele": 580,
    "tri": 581,
    "dail": 582,
    "daily</w>": 583,
    "a220</w>": 584,
    "rec": 585,
    "re-": 586,
    "re-torqued</w>": 587,
    "b737</w>": 588,
    "a321</w>": 589,
    "usted</w>": 590,
    "ra": 591,
    "justed</w>": 592,
    "adjusted</w>": 593,
    "sensor</w>": 594,
    "ligh": 595,
    "dub": 596,
    "arg": 597,
    "return": 598,
    "returned</w>": 599,
    "star": 600,
    "ab": 601,
    "light</w>": 602,
    "fit": 603,
    "fail": 604,
    "fitting</w>": 605,
    "e190</w>": 606,
    "2-": 607,
    "overheat</w>": 608,
    "up": 609,
    "service</w>": 610,
    "line</w>": 611,
    "ise</w>": 612,
    "ma": 613,
    "el</w>": 614,
    "fu": 615,
    "b738</w>": 616,
    "within</w>": 617,
    "tting</w>": 618,
    "setting</w>": 619,
    "rig": 620,
    "onit": 621,
    "onitor": 622,
    "monitor": 623,
    "ti": 624,
    "ram": 625,
    "ramp</w>": 626,
    "mp</w>": 627,
    "element</w>": 628,
    "spon": 629,
    "mb": 630,
    "failed</w>": 631,
    "tolerance.</w>": 632,
    "s.</w>": 633,
    "ity</w>": 634,
    "wee": 635,
    "week": 636,
    "weekly</w>": 637,
    "dra": 638,
    "trib": 639,
    "tribut": 640,
    "distribut": 641,
    "a-": 642,
    "a-check</w>": 643,
    "fil": 644,
    "ack</w>": 645,
    "se</w>": 646,
    "di": 647,
    "age.</w>": 648,
    "let</w>": 649,
    "filter</w>": 650,
    "ex": 651,
    "0.</w>": 652,
    "sel": 653,
    "select": 654,
    "nt</w>": 655,
    "en</w>": 656,
    "noise</w>": 657,
    "charg": 658,
    "asse": 659,
    "transit</w>": 660,
    "rigg": 661,
    "5-": 662,
    "be": 663,
    "ling</w>": 664,
    "gr": 665,
    "sw": 666,
    "loom</w>": 667,
    "le</w>": 668,
    "pu</w>": 669,
    "apu</w>": 670,
    "ation</w>": 671,
    "leakage.</w>": 672,
    "of</w>": 673,
    "orm": 674,
    "ormal</w>": 675,
    "normal</w>": 676,
    "abnormal</w>": 677,
    "gen": 678,
    "ch</w>": 679,
    "um": 680,
    "po": 681,
    "mad": 682,
    "fuel</w>": 683,
    "ck</w>": 684,
    "termit": 685,
    "termitte": 686,
    "termittent</w>": 687,
    "respon": 688,
    "intermittent</w>": 689,
    "air</w>": 690,
    "pow": 691,
    "ar</w>": 692,
    "warn": 693,
    "power</w>": 694,
    "bat": 695,
    "batter": 696,
    "warning</w>": 697,
    "ted.</w>": 698,
    "reported.</w>": 699,
    "et</w>": 700,
    "assemb": 701,
    "pump</w>": 702,
    "coup": 703,
    "ric": 704,
    "elect": 705,
    "electric": 706,
    "battery</w>": 707,
    "rect</w>": 708,
    "l</w>": 709,
    "correct</w>": 710,
    "below</w>": 711,
    "after</w>": 712,
    "ack": 713,
    "tolerance</w>": 714,
    "tity</w>": 715,
    "quan": 716,
    "quantity</w>": 717,
    "t.</w>": 718,
    "rigged</w>": 719,
    "assembly</w>": 720,
    "coupling</w>": 721,
    "av": 722,
    "sion</w>": 723,
    "rosion</w>": 724,
    "corrosion</w>": 725,
    "7.</w>": 726,
    "-07.</w>": 727,
    "fla": 728,
    "5.</w>": 729,
    "-05.</w>": 730,
    "swit": 731,
    "leak</w>": 732,
    "3.</w>": 733,
    "-03.</w>": 734,
    "sit": 735,
    "sition</w>": 736,
    "position</w>": 737,
    "leted</w>": 738,
    "completed</w>": 739,
    "checked</w>": 740,
    "spla": 741,
    "splay": 742,
    "mess": 743,
    "message</w>": 744,
    "display": 745,
    "read": 746,
    "reading</w>": 747,
    "found.</w>": 748,
    "response</w>": 749,
    "leed</w>": 750,
    "bleed</w>": 751,
    "8.</w>": 752,
    "-08.</w>": 753,
    "ree": 754,
    "harn": 755,
    "harness": 756,
    "electrical</w>": 757,
    "dam": 758,
    "damage</w>": 759,
    "chaf": 760,
    "chafing</w>": 761,
    "xi": 762,
    "charge</w>": 763,
    "switch</w>": 764,
    "inlet</w>": 765,
    "mo": 766,
    "pp": 767,
    "lhr:</w>": 768,
    "30-": 769,
    "str": 770,
    "1.</w>": 771,
    "-01.</w>": 772,
    "29-": 773,
    "of": 774,
    "indicating</w>": 775,
    "cph:</w>": 776,
    "ed.</w>": 777,
    "6.</w>": 778,
    "4.</w>": 779,
    "2.</w>": 780,
    "-06.</w>": 781,
    "-04.</w>": 782,
    "-02.</w>": 783,
    "wir": 784,
    "wiring</w>": 785,
    "52-": 786,
    "ru": 787,
    "ing).</w>": 788,
    "dri": 789,
    "tect": 790,
    "servo": 791,
    "reservo": 792,
    "reli": 793,
    "relie": 794,
    "relief</w>": 795,
    "mm": 796,
    "ing)</w>": 797,
    "indication.</w>": 798,
    "il</w>": 799,
    "detect": 800,
    "cdg:</w>": 801,
    "9.</w>": 802,
    "-09.</w>": 803,
    "lis:</w>": 804,
    "leakage</w>": 805,
    "27-": 806,
    "21-": 807,
    "sur": 808,
    "start</w>": 809,
    "rad": 810,
    "36-": 811,
    "ep": 812,
    "68": 813,
    "34-": 814,
    "28-": 815,
    "mad</w>": 816,
    "ic</w>": 817,
    "drain</w>": 818,
    "gener": 819,
    "pack</w>": 820,
    "harness</w>": 821,
    "clo": 822,
    "go</w>": 823,
    "s:</w>": 824,
    "ams:</w>": 825,
    "49-": 826,
    "24-": 827,
    "ys": 828,
    "sys": 829,
    "ounting</w>": 830,
    "op": 831,
    "mounting</w>": 832,
    "groun": 833,
    "brak": 834,
    "brack": 835,
    "(indicat": 836,
    "lis</w>": 837,
    "lu": 838,
    "49": 839,
    "reservoir</w>": 840,
    "distribution</w>": 841,
    "de</w>": 842,
    "66": 843,
    "oler</w>": 844,
    "dub</w>": 845,
    "cooler</w>": 846,
    "32-": 847,
    "mad:</w>": 848,
    "51": 849,
    "(control": 850,
    "lock</w>": 851,
    "if": 852,
    "cph</w>": 853,
    "cdg</w>": 854,
    "wo</w>": 855,
    "two</w>": 856,
    "tens": 857,
    "lhr</w>": 858,
    "ig": 859,
    "fan</w>": 860,
    "extens": 861,
    "33-": 862,
    "duc": 863,
    "duct</w>": 864,
    "umul": 865,
    "selection.</w>": 866,
    "cumul": 867,
    "accumul": 868,
    "(monitor": 869,
    "distribution": 870,
    "ams</w>": 871,
    "29": 872,
    "(distribution": 873,
    "open</w>": 874,
    "46": 875,
    "38": 876,
    "30": 877,
    "mod": 878,
    "modul": 879,
    "discharge</w>": 880,
    "58": 881,
    "shi": 882,
    "au": 883,
    "57": 884,
    "dub:</w>": 885,
    "accumulator</w>": 886,
    "56": 887,
    "tact": 888,
    "serviced</w>": 889,
    "selection</w>": 890,
    "contact": 891,
    "ns</w>": 892,
    "mast</w>": 893,
    "monitoring</w>": 894,
    "disag": 895,
    "bracket</w>": 896,
    "by</w>": 897,
    "ty": 898,
    "tyr": 899,
    "tyre</w>": 900,
    "precooler</w>": 901,
    "contactor</w>": 902,
    "brake</w>": 903,
    "26": 904,
    "slow</w>": 905,
    "e:</w>": 906,
    "39": 907,
    "seep": 908,
    "seepage</w>": 909,
    "fee": 910,
    "41": 911,
    "not</w>": 912,
    "extension</w>": 913,
    "eed</w>": 914,
    "ximit": 915,
    "ximity</w>": 916,
    "proximity</w>": 917,
    "generator</w>": 918,
    "86": 919,
    "71": 920,
    "igh": 921,
    "high": 922,
    "cru": 923,
    "48": 924,
    "21": 925,
    "bo": 926,
    "me": 927,
    "ater</w>": 928,
    "ing.</w>": 929,
    "79": 930,
    "59": 931,
    "78": 932,
    "44": 933,
    "g</w>": 934,
    "block</w>": 935,
    "ate</w>": 936,
    "36": 937,
    "limit": 938,
    "76": 939,
    "3;</w>": 940,
    "10": 941,
    "we": 942,
    "transc": 943,
    "transce": 944,
    "transcei": 945,
    "surf": 946,
    "surfac": 947,
    "surface</w>": 948,
    "sli": 949,
    "slide</w>": 950,
    "oil</w>": 951,
    "men": 952,
    "55": 953,
    "28": 954,
    "pped</w>": 955,
    "mec": 956,
    "mech": 957,
    "mechan": 958,
    "mechanis": 959,
    "der</w>": 960,
    "pit": 961,
    "pito": 962,
    "pitot</w>": 963,
    "eng": 964,
    "b737:</w>": 965,
    "iner": 966,
    "inerti": 967,
    "ver</w>": 968,
    "ull</w>": 969,
    "transceiver</w>": 970,
    "lef": 971,
    "left</w>": 972,
    "lan": 973,
    "land": 974,
    "landing</w>": 975,
    "full</w>": 976,
    "es.</w>": 977,
    "mechanism</w>": 978,
    "leaking.</w>": 979,
    "drain": 980,
    "11": 981,
    "loop</w>": 982,
    "led</w>": 983,
    "b738.</w>": 984,
    "a321.</w>": 985,
    "40": 986,
    "20": 987,
    "spec": 988,
    "ti-": 989,
    "ti-ic": 990,
    "irc": 991,
    "displayed</w>": 992,
    "anti-ic": 993,
    "45": 994,
    "or:</w>": 995,
    "flash": 996,
    "displayed.</w>": 997,
    "compu": 998,
    "16": 999,
    "utlet</w>": 1000,
    "ump</w>": 1001,
    "sump</w>": 1002,
    "sam": 1003,
    "samp": 1004,
    "outlet</w>": 1005,
    "m.</w>": 1006,
    "ler</w>": 1007,
    "ill": 1008,
    "37": 1009,
    "ge": 1010,
    "clear": 1011,
    "cdg.</w>": 1012,
    "a220.</w>": 1013,
    "ure": 1014,
    "set</w>": 1015,
    "sect": 1016,
    "reset</w>": 1017,
    "recor": 1018,
    "min": 1019,
    "inspection.</w>": 1020,
    "a220:</w>": 1021,
    "valv": 1022,
    "valve:</w>": 1023
  }
}
